const unsigned char trained_tflite[] = {
  0x1c, 0x00, 0x00, 0x00, 0x54, 0x46, 0x4c, 0x33, 0x00, 0x00, 0x12, 0x00,
  0x1c, 0x00, 0x04, 0x00, 0x08, 0x00, 0x0c, 0x00, 0x10, 0x00, 0x14, 0x00,
  0x00, 0x00, 0x18, 0x00, 0x12, 0x00, 0x00, 0x00, 0x03, 0x00, 0x00, 0x00,
  0xb0, 0x0d, 0x00, 0x00, 0x8c, 0x05, 0x00, 0x00, 0x74, 0x05, 0x00, 0x00,
  0x3c, 0x00, 0x00, 0x00, 0x04, 0x00, 0x00, 0x00, 0x01, 0x00, 0x00, 0x00,
  0x0c, 0x00, 0x00, 0x00, 0x08, 0x00, 0x0c, 0x00, 0x04, 0x00, 0x08, 0x00,
  0x08, 0x00, 0x00, 0x00, 0x08, 0x00, 0x00, 0x00, 0x0c, 0x00, 0x00, 0x00,
  0x13, 0x00, 0x00, 0x00, 0x6d, 0x69, 0x6e, 0x5f, 0x72, 0x75, 0x6e, 0x74,
  0x69, 0x6d, 0x65, 0x5f, 0x76, 0x65, 0x72, 0x73, 0x69, 0x6f, 0x6e, 0x00,
  0x0d, 0x00, 0x00, 0x00, 0x2c, 0x05, 0x00, 0x00, 0x18, 0x05, 0x00, 0x00,
  0xac, 0x04, 0x00, 0x00, 0x68, 0x04, 0x00, 0x00, 0x44, 0x04, 0x00, 0x00,
  0xa0, 0x01, 0x00, 0x00, 0xbc, 0x00, 0x00, 0x00, 0x78, 0x00, 0x00, 0x00,
  0x6c, 0x00, 0x00, 0x00, 0x58, 0x00, 0x00, 0x00, 0x44, 0x00, 0x00, 0x00,
  0x30, 0x00, 0x00, 0x00, 0x04, 0x00, 0x00, 0x00, 0x76, 0xfa, 0xff, 0xff,
  0x04, 0x00, 0x00, 0x00, 0x10, 0x00, 0x00, 0x00, 0x31, 0x2e, 0x35, 0x2e,
  0x30, 0x00, 0x00, 0x00, 0x00, 0x00, 0x00, 0x00, 0x00, 0x00, 0x00, 0x00,
  0x00, 0x00, 0x00, 0x00, 0x00, 0x00, 0x00, 0x00, 0x00, 0x00, 0x00, 0x00,
  0x6c, 0xfa, 0xff, 0xff, 0x00, 0x00, 0x00, 0x00, 0x00, 0x00, 0x00, 0x00,
  0x00, 0x00, 0x00, 0x00, 0x7c, 0xfa, 0xff, 0xff, 0x00, 0x00, 0x00, 0x00,
  0x00, 0x00, 0x00, 0x00, 0x00, 0x00, 0x00, 0x00, 0x8c, 0xfa, 0xff, 0xff,
  0x00, 0x00, 0x00, 0x00, 0x00, 0x00, 0x00, 0x00, 0x00, 0x00, 0x00, 0x00,
  0x9c, 0xfa, 0xff, 0xff, 0x00, 0x00, 0x00, 0x00, 0xd6, 0xfa, 0xff, 0xff,
  0x04, 0x00, 0x00, 0x00, 0x32, 0x00, 0x00, 0x00, 0x3a, 0xf9, 0xb4, 0xfb,
  0xe9, 0x59, 0xdd, 0xab, 0x41, 0x10, 0xc4, 0xcd, 0x27, 0xfb, 0xf5, 0xfb,
  0xa9, 0x25, 0x81, 0x1d, 0x8b, 0x2d, 0xdd, 0x09, 0x3f, 0xe2, 0xf5, 0x29,
  0x2e, 0xbc, 0x82, 0x05, 0x23, 0x0f, 0xfd, 0x1d, 0x31, 0xc8, 0xaa, 0xf3,
  0xa2, 0x29, 0x3f, 0x04, 0x9e, 0xd2, 0x19, 0x44, 0xf3, 0xcb, 0x00, 0x00,
  0x16, 0xfb, 0xff, 0xff, 0x04, 0x00, 0x00, 0x00, 0xc8, 0x00, 0x00, 0x00,
  0xc4, 0x46, 0x24, 0x42, 0x19, 0xc5, 0x43, 0x1d, 0x9b, 0xb3, 0xe1, 0xe1,
  0x33, 0x60, 0xe6, 0x4e, 0xcf, 0xe5, 0xd6, 0x1a, 0xd3, 0x07, 0xe2, 0x11,
  0x0d, 0x00, 0x25, 0xe6, 0xea, 0xcc, 0x07, 0xd0, 0xf1, 0xed, 0xcb, 0xcc,
  0xe1, 0x24, 0x15, 0xca, 0xf3, 0x0d, 0xfa, 0x12, 0x23, 0x06, 0x49, 0xd2,
  0x72, 0x65, 0x1b, 0x1c, 0x4b, 0xbc, 0x50, 0xdf, 0x1f, 0x7f, 0xc3, 0x06,
  0xc9, 0xf1, 0xdc, 0xc9, 0xf7, 0x13, 0x28, 0x2f, 0x28, 0xc3, 0x22, 0x11,
  0x01, 0xd2, 0xeb, 0x35, 0x0b, 0x0e, 0x07, 0xd3, 0x23, 0x24, 0xcb, 0xdf,
  0xf5, 0x71, 0xe5, 0xee, 0xc4, 0x3c, 0xd6, 0xae, 0xa6, 0x54, 0xc7, 0x12,
  0x10, 0xa5, 0x76, 0x31, 0x25, 0x63, 0xe1, 0x28, 0xb5, 0xf6, 0x4f, 0x03,
  0x29, 0xc4, 0xa4, 0x2c, 0xa1, 0x45, 0xd1, 0x6f, 0xd4, 0xe1, 0x9c, 0x44,
  0x5a, 0xd9, 0xed, 0x62, 0x2e, 0x29, 0x39, 0x0a, 0x42, 0x43, 0xee, 0x19,
  0xbf, 0xf8, 0x13, 0xe1, 0x0f, 0xf7, 0x16, 0xe9, 0xe9, 0x2e, 0xd6, 0xbe,
  0x17, 0x0b, 0xe0, 0xc0, 0x41, 0x41, 0x3c, 0x4a, 0x4b, 0x15, 0x12, 0xf2,
  0xef, 0x2f, 0x33, 0x0d, 0xd4, 0x48, 0x1f, 0x1d, 0x3f, 0x0d, 0x2c, 0xd6,
  0xe1, 0xc9, 0xfc, 0x14, 0x56, 0x7c, 0xe3, 0x60, 0x90, 0x04, 0x37, 0x0e,
  0xe3, 0x33, 0x1b, 0x33, 0xb2, 0x08, 0x4f, 0xef, 0x1d, 0xeb, 0xdb, 0x11,
  0xa0, 0xe7, 0xbe, 0x2c, 0x44, 0x0f, 0xb5, 0x50, 0x00, 0x00, 0x00, 0x00,
  0x00, 0x00, 0x00, 0x00, 0x00, 0x00, 0x00, 0x00, 0xf6, 0xfb, 0xff, 0xff,
  0x04, 0x00, 0x00, 0x00, 0x94, 0x02, 0x00, 0x00, 0xe6, 0xf3, 0xec, 0x1e,
  0x0b, 0x14, 0xe3, 0xf3, 0x08, 0xc2, 0xff, 0x02, 0xff, 0x3c, 0x31, 0x1f,
  0x17, 0x03, 0x1d, 0xf4, 0xed, 0xb5, 0x41, 0xe3, 0xfb, 0x07, 0xe2, 0x2a,
  0xfd, 0xe1, 0x08, 0xba, 0xd9, 0x0b, 0x03, 0x07, 0xef, 0x0c, 0x22, 0x1a,
  0xfc, 0xc5, 0x30, 0x36, 0xee, 0xf5, 0xdc, 0xe2, 0xfe, 0xf4, 0xe7, 0x18,
  0x11, 0x11, 0xfd, 0xe4, 0xe8, 0x15, 0xe4, 0x05, 0x07, 0xe5, 0xff, 0x10,
  0x3a, 0xf1, 0x01, 0xd5, 0xdc, 0x0e, 0xfb, 0x03, 0xce, 0x01, 0xdf, 0xfc,
  0xe7, 0xf4, 0xe4, 0xf6, 0x1b, 0xda, 0xe7, 0xfa, 0x2d, 0xce, 0x13, 0xf4,
  0xf3, 0x10, 0xf6, 0x29, 0x0f, 0xed, 0xfb, 0xf2, 0xe5, 0x24, 0xd4, 0xe1,
  0xe7, 0xed, 0x1b, 0x10, 0x14, 0xe8, 0x10, 0x30, 0xe3, 0xe3, 0xe1, 0x06,
  0x16, 0x0e, 0xd5, 0xf6, 0x0e, 0x29, 0x23, 0x81, 0xbc, 0x41, 0xf5, 0x0c,
  0x2e, 0x04, 0xff, 0x39, 0xf4, 0x15, 0xfb, 0xe4, 0xfd, 0x1a, 0xe2, 0x1a,
  0x07, 0x23, 0xdb, 0xeb, 0x05, 0x0c, 0x08, 0xfa, 0xfe, 0xef, 0xe5, 0x03,
  0xee, 0xe9, 0x05, 0x01, 0x05, 0xe7, 0xea, 0x01, 0xf6, 0xed, 0x22, 0x0f,
  0x22, 0xf2, 0xfc, 0xe6, 0xe7, 0x14, 0x1d, 0xed, 0x0b, 0x22, 0x1f, 0x1f,
  0x0b, 0xf4, 0x8e, 0xed, 0x03, 0x66, 0x07, 0x44, 0x2f, 0xf0, 0x31, 0xf3,
  0x16, 0xd6, 0xef, 0x03, 0x10, 0xeb, 0x37, 0x0b, 0x09, 0x0f, 0xf3, 0x1b,
  0x3a, 0xe8, 0xed, 0x20, 0x0d, 0x0e, 0xe7, 0x0d, 0x14, 0xf6, 0x11, 0xf8,
  0xbc, 0xdf, 0xd9, 0xdc, 0x1f, 0xf7, 0x03, 0x2d, 0x13, 0xf0, 0xc9, 0xdf,
  0x3f, 0xe9, 0x1e, 0x0a, 0xf5, 0x06, 0x1c, 0xdf, 0x27, 0xd9, 0xcf, 0xf5,
  0x35, 0xe4, 0xee, 0xd4, 0x1e, 0xff, 0xd6, 0x20, 0xdd, 0x1b, 0xe6, 0xe7,
  0xea, 0xde, 0xf6, 0xfd, 0xdc, 0x04, 0xef, 0xeb, 0xdc, 0xe5, 0x04, 0x09,
  0xd4, 0x1b, 0x03, 0x0d, 0x29, 0xdc, 0x29, 0xdb, 0x21, 0x23, 0x26, 0xf4,
  0x15, 0x06, 0xe0, 0xf9, 0x1f, 0x04, 0xa3, 0x30, 0xea, 0xf9, 0xeb, 0xd8,
  0x06, 0xea, 0x4b, 0x16, 0x18, 0xde, 0xdf, 0x00, 0xcd, 0x26, 0xec, 0x03,
  0x31, 0xfa, 0xf5, 0xe8, 0xd5, 0x0a, 0x28, 0x0d, 0x3e, 0xde, 0x13, 0xf8,
  0xf3, 0x15, 0x09, 0xcb, 0x09, 0xfa, 0x1a, 0x23, 0x02, 0x0c, 0x14, 0x3a,
  0xf2, 0x4c, 0xd6, 0x05, 0x38, 0x29, 0xff, 0x11, 0xfe, 0x2f, 0x44, 0x00,
  0x05, 0xe1, 0xe1, 0xd5, 0xe0, 0xda, 0x23, 0xee, 0x0e, 0x11, 0x08, 0x55,
  0xee, 0x26, 0xed, 0x2c, 0xea, 0xe8, 0xf0, 0x15, 0x15, 0x0c, 0x34, 0x16,
  0x17, 0xbe, 0xe5, 0xf3, 0xf3, 0x04, 0x03, 0xe8, 0x37, 0x0e, 0xec, 0x1e,
  0x0f, 0xf8, 0x04, 0xee, 0x24, 0xf8, 0x12, 0x13, 0x43, 0xc8, 0x17, 0xe1,
  0xda, 0xe7, 0x0d, 0x0e, 0xfe, 0x35, 0x1f, 0x38, 0xdc, 0xf3, 0x10, 0x16,
  0xe2, 0xfe, 0x19, 0xe1, 0x38, 0xdc, 0xfe, 0xd0, 0x20, 0x39, 0x15, 0xfa,
  0x24, 0xff, 0x1e, 0xe8, 0x0c, 0x36, 0xe7, 0xdf, 0xdf, 0x1b, 0x32, 0xd6,
  0x13, 0xe8, 0xcb, 0xce, 0xda, 0xd8, 0x12, 0x1a, 0xc2, 0x19, 0xf1, 0x0b,
  0x29, 0xb8, 0x07, 0xd4, 0xde, 0xec, 0x1e, 0xd3, 0x0b, 0x0d, 0xf8, 0x1b,
  0xf2, 0xee, 0xee, 0x25, 0x26, 0x47, 0xee, 0x04, 0x19, 0xfe, 0xf4, 0xec,
  0x10, 0xcd, 0xed, 0x10, 0xfd, 0xd8, 0x31, 0x03, 0x07, 0x00, 0xb0, 0xb5,
  0x2a, 0xf4, 0xea, 0xe3, 0x30, 0x07, 0x14, 0x04, 0x17, 0x20, 0xff, 0x01,
  0xa6, 0xf8, 0xdc, 0xfa, 0x19, 0xfa, 0x03, 0xd7, 0x09, 0xd5, 0x04, 0xea,
  0xe4, 0x2a, 0x18, 0x1e, 0xea, 0x08, 0xf6, 0x31, 0x14, 0xe6, 0xf9, 0xd2,
  0x30, 0xdb, 0xf9, 0xf1, 0x22, 0xf7, 0xe8, 0xe9, 0x0d, 0xda, 0x04, 0x07,
  0xe0, 0x27, 0xde, 0x18, 0x39, 0x07, 0x14, 0xe0, 0xe0, 0x12, 0xef, 0xf6,
  0xfa, 0x04, 0x07, 0xfa, 0xf5, 0xc7, 0xca, 0xbf, 0xf0, 0x22, 0x2c, 0x0e,
  0x0b, 0x02, 0x12, 0xd7, 0xff, 0x22, 0x2a, 0xdf, 0xe2, 0xd9, 0xe2, 0x0f,
  0xfc, 0x1a, 0xeb, 0xf7, 0xe3, 0xf7, 0x01, 0x15, 0x2e, 0x16, 0x04, 0x07,
  0x2e, 0x17, 0x21, 0x15, 0x1b, 0xdf, 0xe9, 0xc9, 0xe8, 0x1f, 0xf9, 0x03,
  0x1e, 0xc3, 0x1b, 0xf7, 0x0e, 0xf6, 0xed, 0xf7, 0xf8, 0x00, 0xe6, 0xe2,
  0x39, 0x03, 0xf8, 0x1d, 0xc6, 0x2d, 0xf6, 0xe9, 0x19, 0x10, 0x38, 0x1f,
  0x12, 0x12, 0xd8, 0x26, 0x0d, 0x32, 0x2c, 0x1d, 0x07, 0xbe, 0xbf, 0xcc,
  0xd0, 0xfc, 0x55, 0x18, 0x0b, 0x43, 0xfe, 0xf8, 0x8b, 0xec, 0x2b, 0xe3,
  0xef, 0x45, 0xde, 0xff, 0x25, 0x0b, 0xe4, 0xae, 0x18, 0x1f, 0x12, 0xfb,
  0x24, 0x26, 0x06, 0x22, 0xff, 0x15, 0xd4, 0x21, 0x24, 0x36, 0x2a, 0x1e,
  0xf5, 0x21, 0x1b, 0x15, 0xfa, 0xf2, 0xec, 0xd9, 0x3a, 0x36, 0xe6, 0x2f,
  0x21, 0xf6, 0x27, 0xe0, 0xc3, 0xcf, 0xff, 0x5a, 0x96, 0xfe, 0xff, 0xff,
  0x04, 0x00, 0x00, 0x00, 0x14, 0x00, 0x00, 0x00, 0xaa, 0x01, 0x00, 0x00,
  0x24, 0xfe, 0xff, 0xff, 0x15, 0xff, 0xff, 0xff, 0x64, 0xff, 0xff, 0xff,
  0xcf, 0xfe, 0xff, 0xff, 0xb6, 0xfe, 0xff, 0xff, 0x04, 0x00, 0x00, 0x00,
  0x28, 0x00, 0x00, 0x00, 0xbf, 0x02, 0x00, 0x00, 0xd6, 0xff, 0xff, 0xff,
  0xe1, 0xfe, 0xff, 0xff, 0xb9, 0xff, 0xff, 0xff, 0x57, 0x00, 0x00, 0x00,
  0xd7, 0x02, 0x00, 0x00, 0x23, 0xff, 0xff, 0xff, 0x78, 0xff, 0xff, 0xff,
  0xed, 0x02, 0x00, 0x00, 0x73, 0x01, 0x00, 0x00, 0x00, 0x00, 0x00, 0x00,
  0x00, 0x00, 0x00, 0x00, 0x00, 0x00, 0x00, 0x00, 0xf6, 0xfe, 0xff, 0xff,
  0x04, 0x00, 0x00, 0x00, 0x50, 0x00, 0x00, 0x00, 0x1b, 0x00, 0x00, 0x00,
  0x76, 0x02, 0x00, 0x00, 0x66, 0x00, 0x00, 0x00, 0x6e, 0x02, 0x00, 0x00,
  0xee, 0xff, 0xff, 0xff, 0x39, 0x00, 0x00, 0x00, 0x16, 0x03, 0x00, 0x00,
  0x15, 0x00, 0x00, 0x00, 0x8d, 0xff, 0xff, 0xff, 0xc0, 0xff, 0xff, 0xff,
  0x19, 0xff, 0xff, 0xff, 0x39, 0xff, 0xff, 0xff, 0x36, 0x01, 0x00, 0x00,
  0x2b, 0x03, 0x00, 0x00, 0xc8, 0xff, 0xff, 0xff, 0xe8, 0x02, 0x00, 0x00,
  0x73, 0xff, 0xff, 0xff, 0x1d, 0xff, 0xff, 0xff, 0x17, 0x00, 0x00, 0x00,
  0xb7, 0x02, 0x00, 0x00, 0x00, 0x00, 0x00, 0x00, 0x00, 0x00, 0x00, 0x00,
  0x00, 0x00, 0x00, 0x00, 0x2c, 0xff, 0xff, 0xff, 0x00, 0x00, 0x00, 0x00,
  0x00, 0x00, 0x00, 0x00, 0x00, 0x00, 0x00, 0x00, 0x3c, 0xff, 0xff, 0xff,
  0x0f, 0x00, 0x00, 0x00, 0x4d, 0x4c, 0x49, 0x52, 0x20, 0x43, 0x6f, 0x6e,
  0x76, 0x65, 0x72, 0x74, 0x65, 0x64, 0x2e, 0x00, 0x01, 0x00, 0x00, 0x00,
  0x14, 0x00, 0x00, 0x00, 0x00, 0x00, 0x0e, 0x00, 0x18, 0x00, 0x04, 0x00,
  0x08, 0x00, 0x0c, 0x00, 0x10, 0x00, 0x14, 0x00, 0x0e, 0x00, 0x00, 0x00,
  0x50, 0x01, 0x00, 0x00, 0x44, 0x01, 0x00, 0x00, 0x38, 0x01, 0x00, 0x00,
  0x14, 0x00, 0x00, 0x00, 0x04, 0x00, 0x00, 0x00, 0x04, 0x00, 0x00, 0x00,
  0x6d, 0x61, 0x69, 0x6e, 0x00, 0x00, 0x00, 0x00, 0x04, 0x00, 0x00, 0x00,
  0xe0, 0x00, 0x00, 0x00, 0x98, 0x00, 0x00, 0x00, 0x50, 0x00, 0x00, 0x00,
  0x14, 0x00, 0x00, 0x00, 0x00, 0x00, 0x0e, 0x00, 0x1a, 0x00, 0x08, 0x00,
  0x0c, 0x00, 0x10, 0x00, 0x07, 0x00, 0x14, 0x00, 0x0e, 0x00, 0x00, 0x00,
  0x00, 0x00, 0x00, 0x09, 0x01, 0x00, 0x00, 0x00, 0x24, 0x00, 0x00, 0x00,
  0x18, 0x00, 0x00, 0x00, 0x0c, 0x00, 0x00, 0x00, 0x00, 0x00, 0x06, 0x00,
  0x08, 0x00, 0x04, 0x00, 0x06, 0x00, 0x00, 0x00, 0x00, 0x00, 0x80, 0x3f,
  0x01, 0x00, 0x00, 0x00, 0x0a, 0x00, 0x00, 0x00, 0x01, 0x00, 0x00, 0x00,
  0x09, 0x00, 0x00, 0x00, 0xca, 0xff, 0xff, 0xff, 0x00, 0x00, 0x00, 0x08,
  0x1c, 0x00, 0x00, 0x00, 0x10, 0x00, 0x00, 0x00, 0x08, 0x00, 0x00, 0x00,
  0x04, 0x00, 0x04, 0x00, 0x04, 0x00, 0x00, 0x00, 0x01, 0x00, 0x00, 0x00,
  0x09, 0x00, 0x00, 0x00, 0x03, 0x00, 0x00, 0x00, 0x08, 0x00, 0x00, 0x00,
  0x06, 0x00, 0x00, 0x00, 0x03, 0x00, 0x00, 0x00, 0x00, 0x00, 0x0e, 0x00,
  0x14, 0x00, 0x00, 0x00, 0x08, 0x00, 0x0c, 0x00, 0x07, 0x00, 0x10, 0x00,
  0x0e, 0x00, 0x00, 0x00, 0x00, 0x00, 0x00, 0x08, 0x1c, 0x00, 0x00, 0x00,
  0x10, 0x00, 0x00, 0x00, 0x04, 0x00, 0x00, 0x00, 0xba, 0xff, 0xff, 0xff,
  0x00, 0x00, 0x00, 0x01, 0x01, 0x00, 0x00, 0x00, 0x08, 0x00, 0x00, 0x00,
  0x03, 0x00, 0x00, 0x00, 0x07, 0x00, 0x00, 0x00, 0x05, 0x00, 0x00, 0x00,
  0x02, 0x00, 0x00, 0x00, 0x00, 0x00, 0x0e, 0x00, 0x16, 0x00, 0x00, 0x00,
  0x08, 0x00, 0x0c, 0x00, 0x07, 0x00, 0x10, 0x00, 0x0e, 0x00, 0x00, 0x00,
  0x00, 0x00, 0x00, 0x08, 0x24, 0x00, 0x00, 0x00, 0x18, 0x00, 0x00, 0x00,
  0x0c, 0x00, 0x00, 0x00, 0x00, 0x00, 0x06, 0x00, 0x08, 0x00, 0x07, 0x00,
  0x06, 0x00, 0x00, 0x00, 0x00, 0x00, 0x00, 0x01, 0x01, 0x00, 0x00, 0x00,
  0x07, 0x00, 0x00, 0x00, 0x03, 0x00, 0x00, 0x00, 0x00, 0x00, 0x00, 0x00,
  0x04, 0x00, 0x00, 0x00, 0x01, 0x00, 0x00, 0x00, 0x01, 0x00, 0x00, 0x00,
  0x0a, 0x00, 0x00, 0x00, 0x01, 0x00, 0x00, 0x00, 0x00, 0x00, 0x00, 0x00,
  0x0b, 0x00, 0x00, 0x00, 0x38, 0x06, 0x00, 0x00, 0xc4, 0x05, 0x00, 0x00,
  0x6c, 0x05, 0x00, 0x00, 0x18, 0x05, 0x00, 0x00, 0x6c, 0x04, 0x00, 0x00,
  0xb8, 0x03, 0x00, 0x00, 0x04, 0x03, 0x00, 0x00, 0x10, 0x02, 0x00, 0x00,
  0x14, 0x01, 0x00, 0x00, 0x60, 0x00, 0x00, 0x00, 0x04, 0x00, 0x00, 0x00,
  0x02, 0xfa, 0xff, 0xff, 0x00, 0x00, 0x00, 0x09, 0x44, 0x00, 0x00, 0x00,
  0x0b, 0x00, 0x00, 0x00, 0x2c, 0x00, 0x00, 0x00, 0x04, 0x00, 0x00, 0x00,
  0x64, 0xfa, 0xff, 0xff, 0x18, 0x00, 0x00, 0x00, 0x04, 0x00, 0x00, 0x00,
  0x01, 0x00, 0x00, 0x00, 0x80, 0xff, 0xff, 0xff, 0xff, 0xff, 0xff, 0xff,
  0x00, 0x00, 0x00, 0x00, 0x01, 0x00, 0x00, 0x00, 0x00, 0x00, 0x80, 0x3b,
  0x08, 0x00, 0x00, 0x00, 0x49, 0x64, 0x65, 0x6e, 0x74, 0x69, 0x74, 0x79,
  0x00, 0x00, 0x00, 0x00, 0x02, 0x00, 0x00, 0x00, 0x01, 0x00, 0x00, 0x00,
  0x05, 0x00, 0x00, 0x00, 0x5a, 0xfa, 0xff, 0xff, 0x00, 0x00, 0x00, 0x09,
  0x9c, 0x00, 0x00, 0x00, 0x0a, 0x00, 0x00, 0x00, 0x44, 0x00, 0x00, 0x00,
  0x04, 0x00, 0x00, 0x00, 0x4c, 0xfa, 0xff, 0xff, 0x30, 0x00, 0x00, 0x00,
  0x24, 0x00, 0x00, 0x00, 0x18, 0x00, 0x00, 0x00, 0x04, 0x00, 0x00, 0x00,
  0x01, 0x00, 0x00, 0x00, 0x10, 0x00, 0x00, 0x00, 0x00, 0x00, 0x00, 0x00,
  0x00, 0x00, 0x00, 0x00, 0x01, 0x00, 0x00, 0x00, 0xed, 0xb2, 0xae, 0x3e,
  0x01, 0x00, 0x00, 0x00, 0xb2, 0x0c, 0x18, 0x42, 0x01, 0x00, 0x00, 0x00,
  0xc3, 0xfb, 0x43, 0xc2, 0x4b, 0x00, 0x00, 0x00, 0x73, 0x65, 0x71, 0x75,
  0x65, 0x6e, 0x74, 0x69, 0x61, 0x6c, 0x2f, 0x79, 0x5f, 0x70, 0x72, 0x65,
  0x64, 0x2f, 0x42, 0x69, 0x61, 0x73, 0x41, 0x64, 0x64, 0x3b, 0x53, 0x74,
  0x61, 0x74, 0x65, 0x66, 0x75, 0x6c, 0x50, 0x61, 0x72, 0x74, 0x69, 0x74,
  0x69, 0x6f, 0x6e, 0x65, 0x64, 0x43, 0x61, 0x6c, 0x6c, 0x2f, 0x73, 0x65,
  0x71, 0x75, 0x65, 0x6e, 0x74, 0x69, 0x61, 0x6c, 0x2f, 0x79, 0x5f, 0x70,
  0x72, 0x65, 0x64, 0x2f, 0x42, 0x69, 0x61, 0x73, 0x41, 0x64, 0x64, 0x00,
  0x02, 0x00, 0x00, 0x00, 0x01, 0x00, 0x00, 0x00, 0x05, 0x00, 0x00, 0x00,
  0x0a, 0xfb, 0xff, 0xff, 0x00, 0x00, 0x00, 0x09, 0xe4, 0x00, 0x00, 0x00,
  0x09, 0x00, 0x00, 0x00, 0x40, 0x00, 0x00, 0x00, 0x04, 0x00, 0x00, 0x00,
  0xfc, 0xfa, 0xff, 0xff, 0x2c, 0x00, 0x00, 0x00, 0x20, 0x00, 0x00, 0x00,
  0x14, 0x00, 0x00, 0x00, 0x04, 0x00, 0x00, 0x00, 0x01, 0x00, 0x00, 0x00,
  0x80, 0xff, 0xff, 0xff, 0xff, 0xff, 0xff, 0xff, 0x01, 0x00, 0x00, 0x00,
  0x45, 0xeb, 0x10, 0x3e, 0x01, 0x00, 0x00, 0x00, 0x5a, 0x5a, 0x10, 0x42,
  0x01, 0x00, 0x00, 0x00, 0x00, 0x00, 0x00, 0x00, 0x95, 0x00, 0x00, 0x00,
  0x73, 0x65, 0x71, 0x75, 0x65, 0x6e, 0x74, 0x69, 0x61, 0x6c, 0x2f, 0x64,
  0x65, 0x6e, 0x73, 0x65, 0x5f, 0x31, 0x2f, 0x52, 0x65, 0x6c, 0x75, 0x3b,
  0x53, 0x74, 0x61, 0x74, 0x65, 0x66, 0x75, 0x6c, 0x50, 0x61, 0x72, 0x74,
  0x69, 0x74, 0x69, 0x6f, 0x6e, 0x65, 0x64, 0x43, 0x61, 0x6c, 0x6c, 0x2f,
  0x73, 0x65, 0x71, 0x75, 0x65, 0x6e, 0x74, 0x69, 0x61, 0x6c, 0x2f, 0x64,
  0x65, 0x6e, 0x73, 0x65, 0x5f, 0x31, 0x2f, 0x52, 0x65, 0x6c, 0x75, 0x3b,
  0x73, 0x65, 0x71, 0x75, 0x65, 0x6e, 0x74, 0x69, 0x61, 0x6c, 0x2f, 0x64,
  0x65, 0x6e, 0x73, 0x65, 0x5f, 0x31, 0x2f, 0x42, 0x69, 0x61, 0x73, 0x41,
  0x64, 0x64, 0x3b, 0x53, 0x74, 0x61, 0x74, 0x65, 0x66, 0x75, 0x6c, 0x50,
  0x61, 0x72, 0x74, 0x69, 0x74, 0x69, 0x6f, 0x6e, 0x65, 0x64, 0x43, 0x61,
  0x6c, 0x6c, 0x2f, 0x73, 0x65, 0x71, 0x75, 0x65, 0x6e, 0x74, 0x69, 0x61,
  0x6c, 0x2f, 0x64, 0x65, 0x6e, 0x73, 0x65, 0x5f, 0x31, 0x2f, 0x42, 0x69,
  0x61, 0x73, 0x41, 0x64, 0x64, 0x00, 0x00, 0x00, 0x02, 0x00, 0x00, 0x00,
  0x01, 0x00, 0x00, 0x00, 0x0a, 0x00, 0x00, 0x00, 0x02, 0xfc, 0xff, 0xff,
  0x00, 0x00, 0x00, 0x09, 0xdc, 0x00, 0x00, 0x00, 0x08, 0x00, 0x00, 0x00,
  0x40, 0x00, 0x00, 0x00, 0x04, 0x00, 0x00, 0x00, 0xf4, 0xfb, 0xff, 0xff,
  0x2c, 0x00, 0x00, 0x00, 0x20, 0x00, 0x00, 0x00, 0x14, 0x00, 0x00, 0x00,
  0x04, 0x00, 0x00, 0x00, 0x01, 0x00, 0x00, 0x00, 0x80, 0xff, 0xff, 0xff,
  0xff, 0xff, 0xff, 0xff, 0x01, 0x00, 0x00, 0x00, 0xeb, 0xd5, 0xd6, 0x3d,
  0x01, 0x00, 0x00, 0x00, 0x15, 0xff, 0xd5, 0x41, 0x01, 0x00, 0x00, 0x00,
  0x00, 0x00, 0x00, 0x00, 0x8d, 0x00, 0x00, 0x00, 0x73, 0x65, 0x71, 0x75,
  0x65, 0x6e, 0x74, 0x69, 0x61, 0x6c, 0x2f, 0x64, 0x65, 0x6e, 0x73, 0x65,
  0x2f, 0x52, 0x65, 0x6c, 0x75, 0x3b, 0x53, 0x74, 0x61, 0x74, 0x65, 0x66,
  0x75, 0x6c, 0x50, 0x61, 0x72, 0x74, 0x69, 0x74, 0x69, 0x6f, 0x6e, 0x65,
  0x64, 0x43, 0x61, 0x6c, 0x6c, 0x2f, 0x73, 0x65, 0x71, 0x75, 0x65, 0x6e,
  0x74, 0x69, 0x61, 0x6c, 0x2f, 0x64, 0x65, 0x6e, 0x73, 0x65, 0x2f, 0x52,
  0x65, 0x6c, 0x75, 0x3b, 0x73, 0x65, 0x71, 0x75, 0x65, 0x6e, 0x74, 0x69,
  0x61, 0x6c, 0x2f, 0x64, 0x65, 0x6e, 0x73, 0x65, 0x2f, 0x42, 0x69, 0x61,
  0x73, 0x41, 0x64, 0x64, 0x3b, 0x53, 0x74, 0x61, 0x74, 0x65, 0x66, 0x75,
  0x6c, 0x50, 0x61, 0x72, 0x74, 0x69, 0x74, 0x69, 0x6f, 0x6e, 0x65, 0x64,
  0x43, 0x61, 0x6c, 0x6c, 0x2f, 0x73, 0x65, 0x71, 0x75, 0x65, 0x6e, 0x74,
  0x69, 0x61, 0x6c, 0x2f, 0x64, 0x65, 0x6e, 0x73, 0x65, 0x2f, 0x42, 0x69,
  0x61, 0x73, 0x41, 0x64, 0x64, 0x00, 0x00, 0x00, 0x02, 0x00, 0x00, 0x00,
  0x01, 0x00, 0x00, 0x00, 0x14, 0x00, 0x00, 0x00, 0xf2, 0xfc, 0xff, 0xff,
  0x00, 0x00, 0x00, 0x09, 0x9c, 0x00, 0x00, 0x00, 0x07, 0x00, 0x00, 0x00,
  0x44, 0x00, 0x00, 0x00, 0x04, 0x00, 0x00, 0x00, 0xe4, 0xfc, 0xff, 0xff,
  0x30, 0x00, 0x00, 0x00, 0x24, 0x00, 0x00, 0x00, 0x18, 0x00, 0x00, 0x00,
  0x04, 0x00, 0x00, 0x00, 0x01, 0x00, 0x00, 0x00, 0x00, 0x00, 0x00, 0x00,
  0x00, 0x00, 0x00, 0x00, 0x00, 0x00, 0x00, 0x00, 0x01, 0x00, 0x00, 0x00,
  0x6e, 0x00, 0x39, 0x3c, 0x01, 0x00, 0x00, 0x00, 0xa4, 0x3d, 0x80, 0x3f,
  0x01, 0x00, 0x00, 0x00, 0x6d, 0x8e, 0xb7, 0xbf, 0x49, 0x00, 0x00, 0x00,
  0x73, 0x65, 0x71, 0x75, 0x65, 0x6e, 0x74, 0x69, 0x61, 0x6c, 0x2f, 0x79,
  0x5f, 0x70, 0x72, 0x65, 0x64, 0x2f, 0x4d, 0x61, 0x74, 0x4d, 0x75, 0x6c,
  0x3b, 0x53, 0x74, 0x61, 0x74, 0x65, 0x66, 0x75, 0x6c, 0x50, 0x61, 0x72,
  0x74, 0x69, 0x74, 0x69, 0x6f, 0x6e, 0x65, 0x64, 0x43, 0x61, 0x6c, 0x6c,
  0x2f, 0x73, 0x65, 0x71, 0x75, 0x65, 0x6e, 0x74, 0x69, 0x61, 0x6c, 0x2f,
  0x79, 0x5f, 0x70, 0x72, 0x65, 0x64, 0x2f, 0x4d, 0x61, 0x74, 0x4d, 0x75,
  0x6c, 0x00, 0x00, 0x00, 0x02, 0x00, 0x00, 0x00, 0x05, 0x00, 0x00, 0x00,
  0x0a, 0x00, 0x00, 0x00, 0xa2, 0xfd, 0xff, 0xff, 0x00, 0x00, 0x00, 0x09,
  0x9c, 0x00, 0x00, 0x00, 0x06, 0x00, 0x00, 0x00, 0x44, 0x00, 0x00, 0x00,
  0x04, 0x00, 0x00, 0x00, 0x94, 0xfd, 0xff, 0xff, 0x30, 0x00, 0x00, 0x00,
  0x24, 0x00, 0x00, 0x00, 0x18, 0x00, 0x00, 0x00, 0x04, 0x00, 0x00, 0x00,
  0x01, 0x00, 0x00, 0x00, 0x00, 0x00, 0x00, 0x00, 0x00, 0x00, 0x00, 0x00,
  0x00, 0x00, 0x00, 0x00, 0x01, 0x00, 0x00, 0x00, 0x59, 0xb1, 0xea, 0x3b,
  0x01, 0x00, 0x00, 0x00, 0xf6, 0xdb, 0x68, 0x3f, 0x01, 0x00, 0x00, 0x00,
  0xf0, 0xfa, 0x4d, 0xbf, 0x4b, 0x00, 0x00, 0x00, 0x73, 0x65, 0x71, 0x75,
  0x65, 0x6e, 0x74, 0x69, 0x61, 0x6c, 0x2f, 0x64, 0x65, 0x6e, 0x73, 0x65,
  0x5f, 0x31, 0x2f, 0x4d, 0x61, 0x74, 0x4d, 0x75, 0x6c, 0x3b, 0x53, 0x74,
  0x61, 0x74, 0x65, 0x66, 0x75, 0x6c, 0x50, 0x61, 0x72, 0x74, 0x69, 0x74,
  0x69, 0x6f, 0x6e, 0x65, 0x64, 0x43, 0x61, 0x6c, 0x6c, 0x2f, 0x73, 0x65,
  0x71, 0x75, 0x65, 0x6e, 0x74, 0x69, 0x61, 0x6c, 0x2f, 0x64, 0x65, 0x6e,
  0x73, 0x65, 0x5f, 0x31, 0x2f, 0x4d, 0x61, 0x74, 0x4d, 0x75, 0x6c, 0x00,
  0x02, 0x00, 0x00, 0x00, 0x0a, 0x00, 0x00, 0x00, 0x14, 0x00, 0x00, 0x00,
  0x52, 0xfe, 0xff, 0xff, 0x00, 0x00, 0x00, 0x09, 0x94, 0x00, 0x00, 0x00,
  0x05, 0x00, 0x00, 0x00, 0x40, 0x00, 0x00, 0x00, 0x04, 0x00, 0x00, 0x00,
  0x44, 0xfe, 0xff, 0xff, 0x2c, 0x00, 0x00, 0x00, 0x20, 0x00, 0x00, 0x00,
  0x14, 0x00, 0x00, 0x00, 0x04, 0x00, 0x00, 0x00, 0x01, 0x00, 0x00, 0x00,
  0x00, 0x00, 0x00, 0x00, 0x00, 0x00, 0x00, 0x00, 0x01, 0x00, 0x00, 0x00,
  0x4e, 0x10, 0xf6, 0x3b, 0x01, 0x00, 0x00, 0x00, 0xcd, 0x8b, 0x44, 0x3f,
  0x01, 0x00, 0x00, 0x00, 0x2d, 0x24, 0x74, 0xbf, 0x47, 0x00, 0x00, 0x00,
  0x73, 0x65, 0x71, 0x75, 0x65, 0x6e, 0x74, 0x69, 0x61, 0x6c, 0x2f, 0x64,
  0x65, 0x6e, 0x73, 0x65, 0x2f, 0x4d, 0x61, 0x74, 0x4d, 0x75, 0x6c, 0x3b,
  0x53, 0x74, 0x61, 0x74, 0x65, 0x66, 0x75, 0x6c, 0x50, 0x61, 0x72, 0x74,
  0x69, 0x74, 0x69, 0x6f, 0x6e, 0x65, 0x64, 0x43, 0x61, 0x6c, 0x6c, 0x2f,
  0x73, 0x65, 0x71, 0x75, 0x65, 0x6e, 0x74, 0x69, 0x61, 0x6c, 0x2f, 0x64,
  0x65, 0x6e, 0x73, 0x65, 0x2f, 0x4d, 0x61, 0x74, 0x4d, 0x75, 0x6c, 0x00,
  0x02, 0x00, 0x00, 0x00, 0x14, 0x00, 0x00, 0x00, 0x21, 0x00, 0x00, 0x00,
  0xfa, 0xfe, 0xff, 0xff, 0x00, 0x00, 0x00, 0x02, 0x40, 0x00, 0x00, 0x00,
  0x04, 0x00, 0x00, 0x00, 0x28, 0x00, 0x00, 0x00, 0x04, 0x00, 0x00, 0x00,
  0x5c, 0xff, 0xff, 0xff, 0x14, 0x00, 0x00, 0x00, 0x04, 0x00, 0x00, 0x00,
  0x01, 0x00, 0x00, 0x00, 0x00, 0x00, 0x00, 0x00, 0x00, 0x00, 0x00, 0x00,
  0x01, 0x00, 0x00, 0x00, 0x86, 0x74, 0xd1, 0x3a, 0x09, 0x00, 0x00, 0x00,
  0x75, 0x6e, 0x6b, 0x6e, 0x6f, 0x77, 0x6e, 0x5f, 0x34, 0x00, 0x00, 0x00,
  0x01, 0x00, 0x00, 0x00, 0x05, 0x00, 0x00, 0x00, 0x4a, 0xff, 0xff, 0xff,
  0x00, 0x00, 0x00, 0x02, 0x44, 0x00, 0x00, 0x00, 0x03, 0x00, 0x00, 0x00,
  0x2c, 0x00, 0x00, 0x00, 0x04, 0x00, 0x00, 0x00, 0xac, 0xff, 0xff, 0xff,
  0x18, 0x00, 0x00, 0x00, 0x04, 0x00, 0x00, 0x00, 0x01, 0x00, 0x00, 0x00,
  0x00, 0x00, 0x00, 0x00, 0x00, 0x00, 0x00, 0x00, 0x00, 0x00, 0x00, 0x00,
  0x01, 0x00, 0x00, 0x00, 0x5d, 0xf4, 0x44, 0x3a, 0x09, 0x00, 0x00, 0x00,
  0x75, 0x6e, 0x6b, 0x6e, 0x6f, 0x77, 0x6e, 0x5f, 0x32, 0x00, 0x00, 0x00,
  0x01, 0x00, 0x00, 0x00, 0x0a, 0x00, 0x00, 0x00, 0x9e, 0xff, 0xff, 0xff,
  0x00, 0x00, 0x00, 0x02, 0x50, 0x00, 0x00, 0x00, 0x02, 0x00, 0x00, 0x00,
  0x38, 0x00, 0x00, 0x00, 0x10, 0x00, 0x00, 0x00, 0x0c, 0x00, 0x0c, 0x00,
  0x00, 0x00, 0x00, 0x00, 0x04, 0x00, 0x08, 0x00, 0x0c, 0x00, 0x00, 0x00,
  0x18, 0x00, 0x00, 0x00, 0x04, 0x00, 0x00, 0x00, 0x01, 0x00, 0x00, 0x00,
  0x00, 0x00, 0x00, 0x00, 0x00, 0x00, 0x00, 0x00, 0x00, 0x00, 0x00, 0x00,
  0x01, 0x00, 0x00, 0x00, 0xe7, 0xb4, 0x6b, 0x3a, 0x09, 0x00, 0x00, 0x00,
  0x75, 0x6e, 0x6b, 0x6e, 0x6f, 0x77, 0x6e, 0x5f, 0x30, 0x00, 0x00, 0x00,
  0x01, 0x00, 0x00, 0x00, 0x14, 0x00, 0x00, 0x00, 0x00, 0x00, 0x0e, 0x00,
  0x18, 0x00, 0x08, 0x00, 0x07, 0x00, 0x0c, 0x00, 0x10, 0x00, 0x14, 0x00,
  0x0e, 0x00, 0x00, 0x00, 0x00, 0x00, 0x00, 0x09, 0x64, 0x00, 0x00, 0x00,
  0x01, 0x00, 0x00, 0x00, 0x50, 0x00, 0x00, 0x00, 0x10, 0x00, 0x00, 0x00,
  0x0c, 0x00, 0x14, 0x00, 0x04, 0x00, 0x08, 0x00, 0x0c, 0x00, 0x10, 0x00,
  0x0c, 0x00, 0x00, 0x00, 0x30, 0x00, 0x00, 0x00, 0x24, 0x00, 0x00, 0x00,
  0x18, 0x00, 0x00, 0x00, 0x04, 0x00, 0x00, 0x00, 0x01, 0x00, 0x00, 0x00,
  0x80, 0xff, 0xff, 0xff, 0xff, 0xff, 0xff, 0xff, 0x00, 0x00, 0x00, 0x00,
  0x01, 0x00, 0x00, 0x00, 0x88, 0x39, 0xf5, 0x3d, 0x01, 0x00, 0x00, 0x00,
  0x4e, 0x44, 0xf4, 0x41, 0x01, 0x00, 0x00, 0x00, 0x00, 0x00, 0x00, 0x00,
  0x07, 0x00, 0x00, 0x00, 0x78, 0x5f, 0x69, 0x6e, 0x70, 0x75, 0x74, 0x00,
  0x02, 0x00, 0x00, 0x00, 0x01, 0x00, 0x00, 0x00, 0x21, 0x00, 0x00, 0x00,
  0x02, 0x00, 0x00, 0x00, 0x2c, 0x00, 0x00, 0x00, 0x10, 0x00, 0x00, 0x00,
  0x00, 0x00, 0x0a, 0x00, 0x0e, 0x00, 0x07, 0x00, 0x00, 0x00, 0x08, 0x00,
  0x0a, 0x00, 0x00, 0x00, 0x00, 0x00, 0x00, 0x19, 0x02, 0x00, 0x00, 0x00,
  0x00, 0x00, 0x0a, 0x00, 0x0c, 0x00, 0x07, 0x00, 0x00, 0x00, 0x08, 0x00,
  0x0a, 0x00, 0x00, 0x00, 0x00, 0x00, 0x00, 0x09, 0x04, 0x00, 0x00, 0x00
};
unsigned int trained_tflite_len = 3600;
